const unsigned char trained_tflite[] = {
  0x1c, 0x00, 0x00, 0x00, 0x54, 0x46, 0x4c, 0x33, 0x00, 0x00, 0x12, 0x00,
  0x1c, 0x00, 0x04, 0x00, 0x08, 0x00, 0x0c, 0x00, 0x10, 0x00, 0x14, 0x00,
  0x00, 0x00, 0x18, 0x00, 0x12, 0x00, 0x00, 0x00, 0x03, 0x00, 0x00, 0x00,
  0xb0, 0x0c, 0x00, 0x00, 0x20, 0x05, 0x00, 0x00, 0x08, 0x05, 0x00, 0x00,
  0x3c, 0x00, 0x00, 0x00, 0x04, 0x00, 0x00, 0x00, 0x01, 0x00, 0x00, 0x00,
  0x0c, 0x00, 0x00, 0x00, 0x08, 0x00, 0x0c, 0x00, 0x04, 0x00, 0x08, 0x00,
  0x08, 0x00, 0x00, 0x00, 0x08, 0x00, 0x00, 0x00, 0x0c, 0x00, 0x00, 0x00,
  0x13, 0x00, 0x00, 0x00, 0x6d, 0x69, 0x6e, 0x5f, 0x72, 0x75, 0x6e, 0x74,
  0x69, 0x6d, 0x65, 0x5f, 0x76, 0x65, 0x72, 0x73, 0x69, 0x6f, 0x6e, 0x00,
  0x0d, 0x00, 0x00, 0x00, 0xc0, 0x04, 0x00, 0x00, 0x7c, 0x04, 0x00, 0x00,
  0xa4, 0x03, 0x00, 0x00, 0x44, 0x03, 0x00, 0x00, 0x3c, 0x03, 0x00, 0x00,
  0x34, 0x03, 0x00, 0x00, 0x10, 0x03, 0x00, 0x00, 0x08, 0x03, 0x00, 0x00,
  0x64, 0x00, 0x00, 0x00, 0x5c, 0x00, 0x00, 0x00, 0x54, 0x00, 0x00, 0x00,
  0x1c, 0x00, 0x00, 0x00, 0x04, 0x00, 0x00, 0x00, 0xda, 0xfa, 0xff, 0xff,
  0x04, 0x00, 0x00, 0x00, 0x05, 0x00, 0x00, 0x00, 0x31, 0x2e, 0x35, 0x2e,
  0x30, 0x00, 0x00, 0x00, 0xee, 0xfa, 0xff, 0xff, 0x04, 0x00, 0x00, 0x00,
  0x28, 0x00, 0x00, 0x00, 0x1f, 0x04, 0x00, 0x00, 0x20, 0x00, 0x00, 0x00,
  0x88, 0xff, 0xff, 0xff, 0x43, 0xff, 0xff, 0xff, 0xa8, 0x01, 0x00, 0x00,
  0x55, 0x03, 0x00, 0x00, 0xd2, 0x01, 0x00, 0x00, 0x18, 0x00, 0x00, 0x00,
  0x72, 0x01, 0x00, 0x00, 0x99, 0x03, 0x00, 0x00, 0xf0, 0xfa, 0xff, 0xff,
  0xf4, 0xfa, 0xff, 0xff, 0x2a, 0xfb, 0xff, 0xff, 0x04, 0x00, 0x00, 0x00,
  0x94, 0x02, 0x00, 0x00, 0xdd, 0xcd, 0xe6, 0xf9, 0xfa, 0xf7, 0xd1, 0xe9,
  0xd5, 0x36, 0x40, 0xf1, 0xba, 0x40, 0x08, 0x2b, 0x15, 0xe3, 0x3f, 0x03,
  0x57, 0xea, 0x2e, 0xc2, 0xe2, 0xd9, 0xe5, 0x20, 0xfc, 0xf9, 0xe9, 0xe5,
  0x24, 0xfd, 0x08, 0xf6, 0xdf, 0xff, 0x27, 0x16, 0x25, 0xcd, 0x1e, 0x17,
  0xdd, 0xed, 0xc7, 0xd8, 0xe3, 0xe4, 0xcc, 0x24, 0x14, 0xf3, 0xdb, 0xd4,
  0xe4, 0x11, 0xd7, 0x06, 0x11, 0xdf, 0x04, 0x34, 0x31, 0xc5, 0x0c, 0x20,
  0xde, 0x21, 0x24, 0x16, 0xf9, 0xe3, 0xc2, 0x58, 0xfb, 0x04, 0x1e, 0x0f,
  0x3a, 0x08, 0xf9, 0x12, 0xf7, 0xbf, 0x7a, 0x3b, 0xc8, 0x5a, 0xce, 0x40,
  0x1d, 0x0c, 0x18, 0x85, 0xb4, 0x45, 0xd4, 0xf5, 0xd0, 0x01, 0x1a, 0x07,
  0x10, 0xb3, 0xdd, 0x2e, 0x09, 0x19, 0xce, 0x04, 0x0f, 0x0d, 0xcf, 0xfc,
  0xe5, 0x33, 0x0a, 0x9e, 0xc4, 0x53, 0xed, 0x13, 0x32, 0xfb, 0xe9, 0x19,
  0xde, 0xf9, 0x3b, 0x26, 0xf9, 0x0d, 0xd8, 0x13, 0x04, 0x1f, 0xc5, 0xe8,
  0x09, 0x12, 0x0f, 0xf4, 0xe8, 0xe7, 0xca, 0xf6, 0xe0, 0xe2, 0x0c, 0x05,
  0x01, 0xe1, 0xe3, 0xff, 0xf4, 0xd9, 0x2d, 0x0f, 0x2c, 0xfe, 0x07, 0xdd,
  0xea, 0x03, 0x2b, 0xdd, 0x1c, 0x15, 0x33, 0x38, 0x2b, 0xfb, 0x81, 0xc3,
  0x04, 0x73, 0x0d, 0x45, 0x44, 0xfc, 0x4a, 0x15, 0x20, 0xda, 0xe1, 0xfa,
  0x22, 0xdb, 0x3a, 0x21, 0x09, 0x2f, 0x1b, 0x22, 0x1b, 0xc8, 0xf8, 0x17,
  0x1d, 0x12, 0xee, 0x26, 0xf8, 0xe9, 0x0c, 0xd1, 0xd9, 0xed, 0xcc, 0xe6,
  0x41, 0x0a, 0x0f, 0x2b, 0x1d, 0xef, 0xde, 0xdc, 0x5c, 0xd0, 0x34, 0x15,
  0xf1, 0x0b, 0x0d, 0xe1, 0x2d, 0xf5, 0xeb, 0xe2, 0x45, 0xc8, 0xd0, 0xb1,
  0x13, 0xe1, 0xc5, 0x29, 0xb9, 0x0c, 0xcd, 0xf7, 0xc8, 0xf3, 0xf2, 0x12,
  0xde, 0xe9, 0xcd, 0xc1, 0xb6, 0xe4, 0x05, 0x11, 0xed, 0x1b, 0x12, 0x07,
  0x2e, 0xbd, 0x1b, 0xc8, 0x29, 0x24, 0x28, 0xdf, 0x3a, 0x0a, 0xfd, 0x08,
  0x25, 0x28, 0xe6, 0x38, 0xe4, 0xee, 0xe1, 0xd8, 0x08, 0xef, 0x43, 0x1d,
  0x2f, 0x0e, 0xd7, 0xf9, 0xc4, 0x25, 0xe9, 0x11, 0x52, 0xf9, 0xec, 0xff,
  0x02, 0x08, 0x26, 0x0f, 0x31, 0xdf, 0x00, 0x0e, 0x07, 0x2e, 0x2d, 0x0b,
  0xf6, 0xdd, 0x06, 0x13, 0xf0, 0x0e, 0x37, 0x4f, 0xeb, 0x45, 0xe8, 0xf0,
  0x3e, 0x1b, 0xf1, 0x07, 0xf5, 0x58, 0x4b, 0xdd, 0xf2, 0xf4, 0xc5, 0xf3,
  0xc0, 0x09, 0x34, 0x02, 0x13, 0x49, 0x17, 0xea, 0xd4, 0x45, 0x0e, 0x40,
  0x12, 0xe6, 0xf8, 0x4d, 0x1d, 0xf6, 0xc1, 0xd6, 0x33, 0xdb, 0xf5, 0x2d,
  0xef, 0x1c, 0x33, 0xf2, 0x55, 0xd3, 0xa0, 0x3a, 0x0c, 0x06, 0x0b, 0x08,
  0x2b, 0xf9, 0x1e, 0x22, 0x56, 0x02, 0x27, 0xf1, 0xd1, 0xef, 0x03, 0x05,
  0x08, 0x45, 0x32, 0x29, 0xdf, 0x00, 0x08, 0x27, 0xe4, 0xf1, 0x1f, 0xe2,
  0x3f, 0xde, 0x13, 0xf5, 0x23, 0x20, 0x18, 0xf2, 0x3c, 0x02, 0x15, 0xdc,
  0xfe, 0x4d, 0x0d, 0xda, 0xcc, 0x24, 0x2b, 0xc6, 0x21, 0xeb, 0xc9, 0xdc,
  0xc8, 0xfb, 0x2a, 0x08, 0xcd, 0xfb, 0xd7, 0x0e, 0x37, 0xd2, 0x22, 0xf8,
  0x02, 0x01, 0xf2, 0xea, 0x1b, 0x09, 0x00, 0x1e, 0xf1, 0x0c, 0x01, 0x36,
  0x2a, 0x1e, 0xe0, 0xf8, 0x09, 0xe7, 0xdf, 0x06, 0x15, 0x99, 0xcf, 0x20,
  0xe3, 0xd4, 0x29, 0x06, 0x07, 0x1f, 0xc9, 0xc4, 0x33, 0x04, 0xf4, 0xd8,
  0x48, 0xfc, 0x31, 0xf5, 0x2d, 0x2d, 0x0d, 0x39, 0xee, 0x00, 0xbb, 0xfd,
  0x15, 0xf8, 0xf1, 0xe5, 0x0c, 0x0a, 0x52, 0x35, 0xdb, 0x27, 0x19, 0x0d,
  0xed, 0x07, 0x09, 0x2a, 0x09, 0x01, 0x4a, 0xd6, 0x32, 0xe6, 0x15, 0xf2,
  0x3a, 0xf0, 0xe1, 0xee, 0x20, 0xd2, 0x0c, 0xf1, 0xe2, 0x2e, 0xd2, 0xff,
  0x24, 0x18, 0x0d, 0xf7, 0xd3, 0x00, 0xd3, 0xd9, 0xe5, 0x0d, 0x0c, 0xff,
  0xf5, 0xbf, 0xc1, 0xbc, 0xca, 0x42, 0x13, 0x16, 0xf8, 0xf5, 0xf5, 0xf9,
  0xd0, 0x31, 0xfe, 0xe2, 0xed, 0xdf, 0xe5, 0x1e, 0x1c, 0x15, 0xd6, 0x10,
  0x02, 0xc8, 0xed, 0x3e, 0x27, 0x18, 0xfd, 0x04, 0x3a, 0x50, 0x0d, 0x02,
  0xf9, 0xc6, 0xf6, 0xa9, 0xff, 0x26, 0xf3, 0xf8, 0x34, 0xaf, 0x00, 0xed,
  0x0f, 0xfa, 0xe0, 0x02, 0xdb, 0xfa, 0xef, 0xeb, 0x38, 0xe4, 0xda, 0x31,
  0xc3, 0x3d, 0x0a, 0xe0, 0x1b, 0x15, 0x36, 0x48, 0xe9, 0x00, 0xc8, 0x1e,
  0x1c, 0x2e, 0x23, 0x11, 0x11, 0xda, 0xe8, 0xbf, 0xb6, 0xef, 0x57, 0x14,
  0xea, 0x44, 0xee, 0x0c, 0xae, 0xed, 0x1c, 0xf9, 0x02, 0x45, 0xf0, 0xe1,
  0x32, 0x06, 0x05, 0xf1, 0x37, 0x26, 0x29, 0xec, 0x3e, 0x24, 0x11, 0x12,
  0x13, 0x12, 0xc0, 0x2d, 0xf1, 0xee, 0x3c, 0x3b, 0x04, 0x3b, 0x36, 0x23,
  0xe8, 0xea, 0xe2, 0xcc, 0x34, 0x32, 0xee, 0x29, 0x33, 0xf1, 0x3c, 0xbf,
  0x9d, 0xac, 0xf4, 0x34, 0x98, 0xfd, 0xff, 0xff, 0xce, 0xfd, 0xff, 0xff,
  0x04, 0x00, 0x00, 0x00, 0x14, 0x00, 0x00, 0x00, 0x82, 0x01, 0x00, 0x00,
  0x16, 0xff, 0xff, 0xff, 0x77, 0xff, 0xff, 0xff, 0xf0, 0xfe, 0xff, 0xff,
  0x04, 0xff, 0xff, 0xff, 0xbc, 0xfd, 0xff, 0xff, 0xc0, 0xfd, 0xff, 0xff,
  0xf6, 0xfd, 0xff, 0xff, 0x04, 0x00, 0x00, 0x00, 0x50, 0x00, 0x00, 0x00,
  0x33, 0xff, 0xff, 0xff, 0xed, 0x02, 0x00, 0x00, 0x3d, 0x02, 0x00, 0x00,
  0x09, 0x03, 0x00, 0x00, 0x60, 0xff, 0xff, 0xff, 0x33, 0x00, 0x00, 0x00,
  0x04, 0x03, 0x00, 0x00, 0xa9, 0x04, 0x00, 0x00, 0x46, 0xff, 0xff, 0xff,
  0xe2, 0xff, 0xff, 0xff, 0x0c, 0x00, 0x00, 0x00, 0x62, 0xff, 0xff, 0xff,
  0xb7, 0xff, 0xff, 0xff, 0xfe, 0x01, 0x00, 0x00, 0x64, 0xff, 0xff, 0xff,
  0x13, 0x00, 0x00, 0x00, 0xd3, 0xff, 0xff, 0xff, 0xe0, 0x01, 0x00, 0x00,
  0x2f, 0x00, 0x00, 0x00, 0x63, 0x03, 0x00, 0x00, 0x52, 0xfe, 0xff, 0xff,
  0x04, 0x00, 0x00, 0x00, 0xc8, 0x00, 0x00, 0x00, 0xdc, 0x4a, 0x4e, 0x0e,
  0x34, 0xff, 0xff, 0x7f, 0xda, 0xd3, 0xe5, 0xe7, 0x4b, 0x3d, 0xee, 0x03,
  0xbc, 0xe9, 0x23, 0x29, 0xf0, 0x19, 0xdb, 0x30, 0x0d, 0x16, 0x39, 0xb9,
  0xdd, 0xe6, 0x1c, 0xc5, 0xf4, 0xe8, 0xc1, 0xdc, 0xe4, 0x34, 0x0e, 0xe2,
  0xfe, 0x27, 0x3b, 0xe9, 0x2d, 0x23, 0x06, 0xd2, 0x4d, 0x3e, 0xe5, 0x02,
  0x16, 0xeb, 0x29, 0x1c, 0x18, 0x53, 0xef, 0xe9, 0xf1, 0xf9, 0xdd, 0xe7,
  0xfe, 0x23, 0x35, 0x02, 0x1f, 0xd8, 0x34, 0x0b, 0xee, 0xd8, 0xe2, 0x46,
  0x2d, 0x3e, 0x25, 0xd3, 0xf1, 0x09, 0xf6, 0xf2, 0xe0, 0x59, 0x09, 0xb7,
  0xda, 0x31, 0x1d, 0xc9, 0xbf, 0x28, 0xd8, 0x21, 0x09, 0xd6, 0x62, 0x2f,
  0x09, 0x60, 0xe7, 0x31, 0xd6, 0xe4, 0x30, 0x4b, 0x1b, 0xc6, 0xb6, 0x2f,
  0xdd, 0x25, 0xe5, 0x06, 0xba, 0x02, 0xdd, 0x37, 0x47, 0x21, 0xfe, 0x54,
  0x12, 0xe6, 0x24, 0x63, 0x34, 0x49, 0xe6, 0x35, 0xec, 0x03, 0x24, 0xe2,
  0x1a, 0x1b, 0xe2, 0xf3, 0x02, 0x39, 0x14, 0xdf, 0xfa, 0x2a, 0xed, 0xc0,
  0x55, 0x3a, 0x42, 0x3f, 0xf1, 0x17, 0xfe, 0x13, 0x0f, 0x35, 0xee, 0x18,
  0xca, 0x3b, 0xe7, 0x3a, 0x28, 0xf3, 0x3e, 0x0a, 0xef, 0xdb, 0x12, 0x23,
  0x26, 0x34, 0xf4, 0x02, 0xc1, 0x2a, 0xe3, 0x08, 0xdb, 0x43, 0x29, 0x26,
  0xe4, 0x33, 0x27, 0x41, 0x08, 0xd3, 0xec, 0x00, 0xc4, 0x04, 0xb6, 0x1a,
  0x20, 0x17, 0x20, 0x3d, 0x26, 0xff, 0xff, 0xff, 0x04, 0x00, 0x00, 0x00,
  0x32, 0x00, 0x00, 0x00, 0x28, 0xd1, 0xc9, 0xcd, 0xea, 0x59, 0x20, 0xbe,
  0x27, 0x06, 0x13, 0xba, 0x09, 0x0e, 0x33, 0xe1, 0x9c, 0x0c, 0xbb, 0x0b,
  0x81, 0x44, 0x00, 0x03, 0x15, 0xf8, 0xfc, 0x2c, 0x33, 0xde, 0x9b, 0xea,
  0x07, 0x07, 0xe1, 0xe2, 0xf6, 0xc9, 0xc1, 0xb9, 0xd9, 0x26, 0x45, 0x0e,
  0xac, 0xe0, 0x1c, 0x3b, 0xf4, 0xcd, 0x00, 0x00, 0x34, 0xff, 0xff, 0xff,
  0x0f, 0x00, 0x00, 0x00, 0x54, 0x4f, 0x43, 0x4f, 0x20, 0x43, 0x6f, 0x6e,
  0x76, 0x65, 0x72, 0x74, 0x65, 0x64, 0x2e, 0x00, 0x01, 0x00, 0x00, 0x00,
  0x04, 0x00, 0x00, 0x00, 0x7c, 0xf9, 0xff, 0xff, 0x94, 0x01, 0x00, 0x00,
  0x88, 0x01, 0x00, 0x00, 0x7c, 0x01, 0x00, 0x00, 0x04, 0x00, 0x00, 0x00,
  0x06, 0x00, 0x00, 0x00, 0x50, 0x01, 0x00, 0x00, 0x04, 0x01, 0x00, 0x00,
  0xbc, 0x00, 0x00, 0x00, 0x74, 0x00, 0x00, 0x00, 0x38, 0x00, 0x00, 0x00,
  0x04, 0x00, 0x00, 0x00, 0xd2, 0xfe, 0xff, 0xff, 0x03, 0x00, 0x00, 0x00,
  0x10, 0x00, 0x00, 0x00, 0x04, 0x00, 0x00, 0x00, 0x01, 0x00, 0x00, 0x00,
  0x0c, 0x00, 0x00, 0x00, 0x01, 0x00, 0x00, 0x00, 0x00, 0x00, 0x00, 0x00,
  0x00, 0x00, 0x0e, 0x00, 0x1a, 0x00, 0x08, 0x00, 0x0c, 0x00, 0x10, 0x00,
  0x07, 0x00, 0x14, 0x00, 0x0e, 0x00, 0x00, 0x00, 0x00, 0x00, 0x00, 0x09,
  0x01, 0x00, 0x00, 0x00, 0x24, 0x00, 0x00, 0x00, 0x18, 0x00, 0x00, 0x00,
  0x0c, 0x00, 0x00, 0x00, 0x00, 0x00, 0x06, 0x00, 0x08, 0x00, 0x04, 0x00,
  0x06, 0x00, 0x00, 0x00, 0x00, 0x00, 0x80, 0x3f, 0x01, 0x00, 0x00, 0x00,
  0x00, 0x00, 0x00, 0x00, 0x01, 0x00, 0x00, 0x00, 0x07, 0x00, 0x00, 0x00,
  0xca, 0xff, 0xff, 0xff, 0x00, 0x00, 0x00, 0x08, 0x1c, 0x00, 0x00, 0x00,
  0x10, 0x00, 0x00, 0x00, 0x08, 0x00, 0x00, 0x00, 0x04, 0x00, 0x04, 0x00,
  0x04, 0x00, 0x00, 0x00, 0x01, 0x00, 0x00, 0x00, 0x07, 0x00, 0x00, 0x00,
  0x03, 0x00, 0x00, 0x00, 0x06, 0x00, 0x00, 0x00, 0x08, 0x00, 0x00, 0x00,
  0x09, 0x00, 0x00, 0x00, 0x00, 0x00, 0x0e, 0x00, 0x14, 0x00, 0x00, 0x00,
  0x08, 0x00, 0x0c, 0x00, 0x07, 0x00, 0x10, 0x00, 0x0e, 0x00, 0x00, 0x00,
  0x00, 0x00, 0x00, 0x08, 0x1c, 0x00, 0x00, 0x00, 0x10, 0x00, 0x00, 0x00,
  0x04, 0x00, 0x00, 0x00, 0xba, 0xff, 0xff, 0xff, 0x00, 0x00, 0x00, 0x01,
  0x01, 0x00, 0x00, 0x00, 0x06, 0x00, 0x00, 0x00, 0x03, 0x00, 0x00, 0x00,
  0x03, 0x00, 0x00, 0x00, 0x04, 0x00, 0x00, 0x00, 0x05, 0x00, 0x00, 0x00,
  0x00, 0x00, 0x0e, 0x00, 0x16, 0x00, 0x00, 0x00, 0x08, 0x00, 0x0c, 0x00,
  0x07, 0x00, 0x10, 0x00, 0x0e, 0x00, 0x00, 0x00, 0x00, 0x00, 0x00, 0x08,
  0x24, 0x00, 0x00, 0x00, 0x18, 0x00, 0x00, 0x00, 0x0c, 0x00, 0x00, 0x00,
  0x00, 0x00, 0x06, 0x00, 0x08, 0x00, 0x07, 0x00, 0x06, 0x00, 0x00, 0x00,
  0x00, 0x00, 0x00, 0x01, 0x01, 0x00, 0x00, 0x00, 0x03, 0x00, 0x00, 0x00,
  0x03, 0x00, 0x00, 0x00, 0x0a, 0x00, 0x00, 0x00, 0x01, 0x00, 0x00, 0x00,
  0x02, 0x00, 0x00, 0x00, 0x00, 0x00, 0x0a, 0x00, 0x10, 0x00, 0x04, 0x00,
  0x08, 0x00, 0x0c, 0x00, 0x0a, 0x00, 0x00, 0x00, 0x02, 0x00, 0x00, 0x00,
  0x10, 0x00, 0x00, 0x00, 0x04, 0x00, 0x00, 0x00, 0x01, 0x00, 0x00, 0x00,
  0x0a, 0x00, 0x00, 0x00, 0x01, 0x00, 0x00, 0x00, 0x0b, 0x00, 0x00, 0x00,
  0x01, 0x00, 0x00, 0x00, 0x0c, 0x00, 0x00, 0x00, 0x01, 0x00, 0x00, 0x00,
  0x0b, 0x00, 0x00, 0x00, 0x0d, 0x00, 0x00, 0x00, 0x80, 0x05, 0x00, 0x00,
  0xcc, 0x04, 0x00, 0x00, 0x64, 0x04, 0x00, 0x00, 0xe8, 0x03, 0x00, 0x00,
  0x4c, 0x03, 0x00, 0x00, 0xe0, 0x02, 0x00, 0x00, 0x64, 0x02, 0x00, 0x00,
  0xe0, 0x01, 0x00, 0x00, 0x44, 0x01, 0x00, 0x00, 0xd8, 0x00, 0x00, 0x00,
  0x64, 0x00, 0x00, 0x00, 0x3c, 0x00, 0x00, 0x00, 0x04, 0x00, 0x00, 0x00,
  0xd8, 0xff, 0xff, 0xff, 0x18, 0x00, 0x00, 0x00, 0x04, 0x00, 0x00, 0x00,
  0x08, 0x00, 0x00, 0x00, 0x49, 0x64, 0x65, 0x6e, 0x74, 0x69, 0x74, 0x79,
  0x00, 0x00, 0x00, 0x00, 0x02, 0x00, 0x00, 0x00, 0x01, 0x00, 0x00, 0x00,
  0x05, 0x00, 0x00, 0x00, 0x0c, 0x00, 0x0c, 0x00, 0x04, 0x00, 0x00, 0x00,
  0x00, 0x00, 0x08, 0x00, 0x0c, 0x00, 0x00, 0x00, 0x14, 0x00, 0x00, 0x00,
  0x04, 0x00, 0x00, 0x00, 0x07, 0x00, 0x00, 0x00, 0x78, 0x5f, 0x69, 0x6e,
  0x70, 0x75, 0x74, 0x00, 0x02, 0x00, 0x00, 0x00, 0x01, 0x00, 0x00, 0x00,
  0x21, 0x00, 0x00, 0x00, 0x1a, 0xfb, 0xff, 0xff, 0x00, 0x00, 0x00, 0x09,
  0x5c, 0x00, 0x00, 0x00, 0x04, 0x00, 0x00, 0x00, 0x40, 0x00, 0x00, 0x00,
  0x04, 0x00, 0x00, 0x00, 0xbc, 0xfb, 0xff, 0xff, 0x2c, 0x00, 0x00, 0x00,
  0x20, 0x00, 0x00, 0x00, 0x14, 0x00, 0x00, 0x00, 0x04, 0x00, 0x00, 0x00,
  0x01, 0x00, 0x00, 0x00, 0x80, 0xff, 0xff, 0xff, 0xff, 0xff, 0xff, 0xff,
  0x01, 0x00, 0x00, 0x00, 0x11, 0x58, 0xfe, 0x3d, 0x01, 0x00, 0x00, 0x00,
  0xb9, 0x59, 0xfd, 0x41, 0x01, 0x00, 0x00, 0x00, 0x00, 0x00, 0x00, 0x00,
  0x0c, 0x00, 0x00, 0x00, 0x78, 0x5f, 0x69, 0x6e, 0x70, 0x75, 0x74, 0x5f,
  0x69, 0x6e, 0x74, 0x38, 0x00, 0x00, 0x00, 0x00, 0x02, 0x00, 0x00, 0x00,
  0x01, 0x00, 0x00, 0x00, 0x21, 0x00, 0x00, 0x00, 0x8a, 0xfb, 0xff, 0xff,
  0x00, 0x00, 0x00, 0x02, 0x58, 0x00, 0x00, 0x00, 0x06, 0x00, 0x00, 0x00,
  0x2c, 0x00, 0x00, 0x00, 0x04, 0x00, 0x00, 0x00, 0x7c, 0xfb, 0xff, 0xff,
  0x18, 0x00, 0x00, 0x00, 0x04, 0x00, 0x00, 0x00, 0x01, 0x00, 0x00, 0x00,
  0x00, 0x00, 0x00, 0x00, 0x00, 0x00, 0x00, 0x00, 0x00, 0x00, 0x00, 0x00,
  0x01, 0x00, 0x00, 0x00, 0x92, 0x98, 0xa5, 0x3a, 0x1d, 0x00, 0x00, 0x00,
  0x73, 0x65, 0x71, 0x75, 0x65, 0x6e, 0x74, 0x69, 0x61, 0x6c, 0x2f, 0x79,
  0x5f, 0x70, 0x72, 0x65, 0x64, 0x2f, 0x4d, 0x61, 0x74, 0x4d, 0x75, 0x6c,
  0x5f, 0x62, 0x69, 0x61, 0x73, 0x00, 0x00, 0x00, 0x01, 0x00, 0x00, 0x00,
  0x05, 0x00, 0x00, 0x00, 0xf2, 0xfb, 0xff, 0xff, 0x00, 0x00, 0x00, 0x09,
  0x84, 0x00, 0x00, 0x00, 0x01, 0x00, 0x00, 0x00, 0x44, 0x00, 0x00, 0x00,
  0x04, 0x00, 0x00, 0x00, 0x94, 0xfc, 0xff, 0xff, 0x30, 0x00, 0x00, 0x00,
  0x24, 0x00, 0x00, 0x00, 0x18, 0x00, 0x00, 0x00, 0x04, 0x00, 0x00, 0x00,
  0x01, 0x00, 0x00, 0x00, 0x00, 0x00, 0x00, 0x00, 0x00, 0x00, 0x00, 0x00,
  0x00, 0x00, 0x00, 0x00, 0x01, 0x00, 0x00, 0x00, 0x6a, 0x77, 0x3a, 0x3c,
  0x01, 0x00, 0x00, 0x00, 0x7b, 0xf9, 0x81, 0x3f, 0x01, 0x00, 0x00, 0x00,
  0x7b, 0x02, 0xb9, 0xbf, 0x31, 0x00, 0x00, 0x00, 0x73, 0x65, 0x71, 0x75,
  0x65, 0x6e, 0x74, 0x69, 0x61, 0x6c, 0x2f, 0x79, 0x5f, 0x70, 0x72, 0x65,
  0x64, 0x2f, 0x4d, 0x61, 0x74, 0x4d, 0x75, 0x6c, 0x2f, 0x52, 0x65, 0x61,
  0x64, 0x56, 0x61, 0x72, 0x69, 0x61, 0x62, 0x6c, 0x65, 0x4f, 0x70, 0x2f,
  0x74, 0x72, 0x61, 0x6e, 0x73, 0x70, 0x6f, 0x73, 0x65, 0x00, 0x00, 0x00,
  0x02, 0x00, 0x00, 0x00, 0x05, 0x00, 0x00, 0x00, 0x0a, 0x00, 0x00, 0x00,
  0x8a, 0xfc, 0xff, 0xff, 0x00, 0x00, 0x00, 0x09, 0x6c, 0x00, 0x00, 0x00,
  0x05, 0x00, 0x00, 0x00, 0x44, 0x00, 0x00, 0x00, 0x04, 0x00, 0x00, 0x00,
  0x2c, 0xfd, 0xff, 0xff, 0x30, 0x00, 0x00, 0x00, 0x24, 0x00, 0x00, 0x00,
  0x18, 0x00, 0x00, 0x00, 0x04, 0x00, 0x00, 0x00, 0x01, 0x00, 0x00, 0x00,
  0x0b, 0x00, 0x00, 0x00, 0x00, 0x00, 0x00, 0x00, 0x00, 0x00, 0x00, 0x00,
  0x01, 0x00, 0x00, 0x00, 0x32, 0x8c, 0x96, 0x3e, 0x01, 0x00, 0x00, 0x00,
  0xf1, 0x4b, 0x08, 0x42, 0x01, 0x00, 0x00, 0x00, 0x5c, 0x9f, 0x23, 0xc2,
  0x19, 0x00, 0x00, 0x00, 0x73, 0x65, 0x71, 0x75, 0x65, 0x6e, 0x74, 0x69,
  0x61, 0x6c, 0x2f, 0x79, 0x5f, 0x70, 0x72, 0x65, 0x64, 0x2f, 0x42, 0x69,
  0x61, 0x73, 0x41, 0x64, 0x64, 0x00, 0x00, 0x00, 0x02, 0x00, 0x00, 0x00,
  0x01, 0x00, 0x00, 0x00, 0x05, 0x00, 0x00, 0x00, 0x0a, 0xfd, 0xff, 0xff,
  0x00, 0x00, 0x00, 0x09, 0x64, 0x00, 0x00, 0x00, 0x0a, 0x00, 0x00, 0x00,
  0x40, 0x00, 0x00, 0x00, 0x04, 0x00, 0x00, 0x00, 0xac, 0xfd, 0xff, 0xff,
  0x2c, 0x00, 0x00, 0x00, 0x20, 0x00, 0x00, 0x00, 0x14, 0x00, 0x00, 0x00,
  0x04, 0x00, 0x00, 0x00, 0x01, 0x00, 0x00, 0x00, 0x80, 0xff, 0xff, 0xff,
  0xff, 0xff, 0xff, 0xff, 0x01, 0x00, 0x00, 0x00, 0xce, 0x58, 0xe3, 0x3d,
  0x01, 0x00, 0x00, 0x00, 0x75, 0x75, 0xe2, 0x41, 0x01, 0x00, 0x00, 0x00,
  0x00, 0x00, 0x00, 0x00, 0x17, 0x00, 0x00, 0x00, 0x73, 0x65, 0x71, 0x75,
  0x65, 0x6e, 0x74, 0x69, 0x61, 0x6c, 0x2f, 0x64, 0x65, 0x6e, 0x73, 0x65,
  0x5f, 0x31, 0x2f, 0x52, 0x65, 0x6c, 0x75, 0x00, 0x02, 0x00, 0x00, 0x00,
  0x01, 0x00, 0x00, 0x00, 0x0a, 0x00, 0x00, 0x00, 0x82, 0xfd, 0xff, 0xff,
  0x00, 0x00, 0x00, 0x02, 0x58, 0x00, 0x00, 0x00, 0x0b, 0x00, 0x00, 0x00,
  0x2c, 0x00, 0x00, 0x00, 0x04, 0x00, 0x00, 0x00, 0x74, 0xfd, 0xff, 0xff,
  0x18, 0x00, 0x00, 0x00, 0x04, 0x00, 0x00, 0x00, 0x01, 0x00, 0x00, 0x00,
  0x00, 0x00, 0x00, 0x00, 0x00, 0x00, 0x00, 0x00, 0x00, 0x00, 0x00, 0x00,
  0x01, 0x00, 0x00, 0x00, 0xff, 0x76, 0x13, 0x3a, 0x1e, 0x00, 0x00, 0x00,
  0x73, 0x65, 0x71, 0x75, 0x65, 0x6e, 0x74, 0x69, 0x61, 0x6c, 0x2f, 0x64,
  0x65, 0x6e, 0x73, 0x65, 0x5f, 0x31, 0x2f, 0x4d, 0x61, 0x74, 0x4d, 0x75,
  0x6c, 0x5f, 0x62, 0x69, 0x61, 0x73, 0x00, 0x00, 0x01, 0x00, 0x00, 0x00,
  0x0a, 0x00, 0x00, 0x00, 0xea, 0xfd, 0xff, 0xff, 0x00, 0x00, 0x00, 0x09,
  0x84, 0x00, 0x00, 0x00, 0x02, 0x00, 0x00, 0x00, 0x44, 0x00, 0x00, 0x00,
  0x04, 0x00, 0x00, 0x00, 0x8c, 0xfe, 0xff, 0xff, 0x30, 0x00, 0x00, 0x00,
  0x24, 0x00, 0x00, 0x00, 0x18, 0x00, 0x00, 0x00, 0x04, 0x00, 0x00, 0x00,
  0x01, 0x00, 0x00, 0x00, 0x00, 0x00, 0x00, 0x00, 0x00, 0x00, 0x00, 0x00,
  0x00, 0x00, 0x00, 0x00, 0x01, 0x00, 0x00, 0x00, 0x44, 0x4f, 0x07, 0x3c,
  0x01, 0x00, 0x00, 0x00, 0xa5, 0x40, 0x86, 0x3f, 0x01, 0x00, 0x00, 0x00,
  0x9e, 0x75, 0x1d, 0xbf, 0x32, 0x00, 0x00, 0x00, 0x73, 0x65, 0x71, 0x75,
  0x65, 0x6e, 0x74, 0x69, 0x61, 0x6c, 0x2f, 0x64, 0x65, 0x6e, 0x73, 0x65,
  0x5f, 0x31, 0x2f, 0x4d, 0x61, 0x74, 0x4d, 0x75, 0x6c, 0x2f, 0x52, 0x65,
  0x61, 0x64, 0x56, 0x61, 0x72, 0x69, 0x61, 0x62, 0x6c, 0x65, 0x4f, 0x70,
  0x2f, 0x74, 0x72, 0x61, 0x6e, 0x73, 0x70, 0x6f, 0x73, 0x65, 0x00, 0x00,
  0x02, 0x00, 0x00, 0x00, 0x0a, 0x00, 0x00, 0x00, 0x14, 0x00, 0x00, 0x00,
  0x82, 0xfe, 0xff, 0xff, 0x00, 0x00, 0x00, 0x09, 0x64, 0x00, 0x00, 0x00,
  0x07, 0x00, 0x00, 0x00, 0x40, 0x00, 0x00, 0x00, 0x04, 0x00, 0x00, 0x00,
  0x24, 0xff, 0xff, 0xff, 0x2c, 0x00, 0x00, 0x00, 0x20, 0x00, 0x00, 0x00,
  0x14, 0x00, 0x00, 0x00, 0x04, 0x00, 0x00, 0x00, 0x01, 0x00, 0x00, 0x00,
  0x80, 0xff, 0xff, 0xff, 0xff, 0xff, 0xff, 0xff, 0x01, 0x00, 0x00, 0x00,
  0xa1, 0x7f, 0x8b, 0x3d, 0x01, 0x00, 0x00, 0x00, 0x21, 0xf4, 0x8a, 0x41,
  0x01, 0x00, 0x00, 0x00, 0x00, 0x00, 0x00, 0x00, 0x15, 0x00, 0x00, 0x00,
  0x73, 0x65, 0x71, 0x75, 0x65, 0x6e, 0x74, 0x69, 0x61, 0x6c, 0x2f, 0x64,
  0x65, 0x6e, 0x73, 0x65, 0x2f, 0x52, 0x65, 0x6c, 0x75, 0x00, 0x00, 0x00,
  0x02, 0x00, 0x00, 0x00, 0x01, 0x00, 0x00, 0x00, 0x14, 0x00, 0x00, 0x00,
  0xfa, 0xfe, 0xff, 0xff, 0x00, 0x00, 0x00, 0x02, 0x54, 0x00, 0x00, 0x00,
  0x03, 0x00, 0x00, 0x00, 0x28, 0x00, 0x00, 0x00, 0x04, 0x00, 0x00, 0x00,
  0xec, 0xfe, 0xff, 0xff, 0x14, 0x00, 0x00, 0x00, 0x04, 0x00, 0x00, 0x00,
  0x01, 0x00, 0x00, 0x00, 0x00, 0x00, 0x00, 0x00, 0x00, 0x00, 0x00, 0x00,
  0x01, 0x00, 0x00, 0x00, 0xdf, 0xfa, 0x42, 0x3a, 0x1c, 0x00, 0x00, 0x00,
  0x73, 0x65, 0x71, 0x75, 0x65, 0x6e, 0x74, 0x69, 0x61, 0x6c, 0x2f, 0x64,
  0x65, 0x6e, 0x73, 0x65, 0x2f, 0x4d, 0x61, 0x74, 0x4d, 0x75, 0x6c, 0x5f,
  0x62, 0x69, 0x61, 0x73, 0x00, 0x00, 0x00, 0x00, 0x01, 0x00, 0x00, 0x00,
  0x14, 0x00, 0x00, 0x00, 0x5e, 0xff, 0xff, 0xff, 0x00, 0x00, 0x00, 0x09,
  0x8c, 0x00, 0x00, 0x00, 0x08, 0x00, 0x00, 0x00, 0x4c, 0x00, 0x00, 0x00,
  0x10, 0x00, 0x00, 0x00, 0x0c, 0x00, 0x14, 0x00, 0x04, 0x00, 0x08, 0x00,
  0x0c, 0x00, 0x10, 0x00, 0x0c, 0x00, 0x00, 0x00, 0x2c, 0x00, 0x00, 0x00,
  0x20, 0x00, 0x00, 0x00, 0x14, 0x00, 0x00, 0x00, 0x04, 0x00, 0x00, 0x00,
  0x01, 0x00, 0x00, 0x00, 0x00, 0x00, 0x00, 0x00, 0x00, 0x00, 0x00, 0x00,
  0x01, 0x00, 0x00, 0x00, 0xdc, 0x3f, 0xc4, 0x3b, 0x01, 0x00, 0x00, 0x00,
  0xe7, 0xec, 0x3a, 0x3f, 0x01, 0x00, 0x00, 0x00, 0x5c, 0xb7, 0x42, 0xbf,
  0x30, 0x00, 0x00, 0x00, 0x73, 0x65, 0x71, 0x75, 0x65, 0x6e, 0x74, 0x69,
  0x61, 0x6c, 0x2f, 0x64, 0x65, 0x6e, 0x73, 0x65, 0x2f, 0x4d, 0x61, 0x74,
  0x4d, 0x75, 0x6c, 0x2f, 0x52, 0x65, 0x61, 0x64, 0x56, 0x61, 0x72, 0x69,
  0x61, 0x62, 0x6c, 0x65, 0x4f, 0x70, 0x2f, 0x74, 0x72, 0x61, 0x6e, 0x73,
  0x70, 0x6f, 0x73, 0x65, 0x00, 0x00, 0x00, 0x00, 0x02, 0x00, 0x00, 0x00,
  0x14, 0x00, 0x00, 0x00, 0x21, 0x00, 0x00, 0x00, 0x00, 0x00, 0x0e, 0x00,
  0x18, 0x00, 0x08, 0x00, 0x07, 0x00, 0x0c, 0x00, 0x10, 0x00, 0x14, 0x00,
  0x0e, 0x00, 0x00, 0x00, 0x00, 0x00, 0x00, 0x09, 0x54, 0x00, 0x00, 0x00,
  0x09, 0x00, 0x00, 0x00, 0x38, 0x00, 0x00, 0x00, 0x10, 0x00, 0x00, 0x00,
  0x0c, 0x00, 0x0c, 0x00, 0x00, 0x00, 0x00, 0x00, 0x04, 0x00, 0x08, 0x00,
  0x0c, 0x00, 0x00, 0x00, 0x18, 0x00, 0x00, 0x00, 0x04, 0x00, 0x00, 0x00,
  0x01, 0x00, 0x00, 0x00, 0x80, 0xff, 0xff, 0xff, 0xff, 0xff, 0xff, 0xff,
  0x00, 0x00, 0x00, 0x00, 0x01, 0x00, 0x00, 0x00, 0x00, 0x00, 0x80, 0x3b,
  0x0d, 0x00, 0x00, 0x00, 0x49, 0x64, 0x65, 0x6e, 0x74, 0x69, 0x74, 0x79,
  0x5f, 0x69, 0x6e, 0x74, 0x38, 0x00, 0x00, 0x00, 0x02, 0x00, 0x00, 0x00,
  0x01, 0x00, 0x00, 0x00, 0x05, 0x00, 0x00, 0x00, 0x04, 0x00, 0x00, 0x00,
  0x4c, 0x00, 0x00, 0x00, 0x30, 0x00, 0x00, 0x00, 0x1c, 0x00, 0x00, 0x00,
  0x04, 0x00, 0x00, 0x00, 0xe6, 0xff, 0xff, 0xff, 0x00, 0x00, 0x00, 0x06,
  0x02, 0x00, 0x00, 0x00, 0x00, 0x00, 0x06, 0x00, 0x06, 0x00, 0x05, 0x00,
  0x06, 0x00, 0x00, 0x00, 0x00, 0x72, 0x0a, 0x00, 0x0e, 0x00, 0x07, 0x00,
  0x00, 0x00, 0x08, 0x00, 0x0a, 0x00, 0x00, 0x00, 0x00, 0x00, 0x00, 0x19,
  0x02, 0x00, 0x00, 0x00, 0x00, 0x00, 0x0a, 0x00, 0x0c, 0x00, 0x07, 0x00,
  0x00, 0x00, 0x08, 0x00, 0x0a, 0x00, 0x00, 0x00, 0x00, 0x00, 0x00, 0x09,
  0x04, 0x00, 0x00, 0x00
};
unsigned int trained_tflite_len = 3376;
